/* Generated by Edge Impulse
 *
 * Permission is hereby granted, free of charge, to any person obtaining a copy
 * of this software and associated documentation files (the "Software"), to deal
 * in the Software without restriction, including without limitation the rights
 * to use, copy, modify, merge, publish, distribute, sublicense, and/or sell
 * copies of the Software, and to permit persons to whom the Software is
 * furnished to do so, subject to the following conditions:
 *
 * The above copyright notice and this permission notice shall be included in
 * all copies or substantial portions of the Software.
 *
 * THE SOFTWARE IS PROVIDED "AS IS", WITHOUT WARRANTY OF ANY KIND, EXPRESS OR
 * IMPLIED, INCLUDING BUT NOT LIMITED TO THE WARRANTIES OF MERCHANTABILITY,
 * FITNESS FOR A PARTICULAR PURPOSE AND NONINFRINGEMENT. IN NO EVENT SHALL THE
 * AUTHORS OR COPYRIGHT HOLDERS BE LIABLE FOR ANY CLAIM, DAMAGES OR OTHER
 * LIABILITY, WHETHER IN AN ACTION OF CONTRACT, TORT OR OTHERWISE, ARISING FROM,
 * OUT OF OR IN CONNECTION WITH THE SOFTWARE OR THE USE OR OTHER DEALINGS IN THE
 * SOFTWARE.
 */

#ifndef _EI_CLASSIFIER_TFLITE_LEARN_7_H_
#define _EI_CLASSIFIER_TFLITE_LEARN_7_H_

#define EI_CLASSIFIER_TFLITE_LEARN_7_ARENA_SIZE     2982
const size_t tflite_learn_7_arena_size = 2982;

#ifdef EI_CLASSIFIER_TFLITE_ARENA_SIZE
#if EI_CLASSIFIER_TFLITE_ARENA_SIZE < EI_CLASSIFIER_TFLITE_LEARN_7_ARENA_SIZE
#undef EI_CLASSIFIER_TFLITE_ARENA_SIZE
#define EI_CLASSIFIER_TFLITE_ARENA_SIZE EI_CLASSIFIER_TFLITE_LEARN_7_ARENA_SIZE
#endif // #if EI_CLASSIFIER_TFLITE_ARENA_SIZE < EI_CLASSIFIER_TFLITE_LEARN_7_ARENA_SIZE
#else
#define EI_CLASSIFIER_TFLITE_ARENA_SIZE EI_CLASSIFIER_TFLITE_LEARN_7_ARENA_SIZE
#endif // #ifdef EI_CLASSIFIER_TFLITE_ARENA_SIZE

#if defined __GNUC__
#define ALIGN(X) __attribute__((aligned(X)))
#elif defined _MSC_VER
#define ALIGN(X) __declspec(align(X))
#elif defined __TASKING__
#define ALIGN(X) __align(X)
#else
#define ALIGN(X)
#endif
ALIGN(16) const unsigned char tflite_learn_7[] = {
  0x1c, 0x00, 0x00, 0x00, 0x54, 0x46, 0x4c, 0x33, 0x14, 0x00, 0x20, 0x00,
  0x1c, 0x00, 0x18, 0x00, 0x14, 0x00, 0x10, 0x00, 0x0c, 0x00, 0x00, 0x00,
  0x08, 0x00, 0x04, 0x00, 0x14, 0x00, 0x00, 0x00, 0x1c, 0x00, 0x00, 0x00,
  0x8c, 0x00, 0x00, 0x00, 0xe4, 0x00, 0x00, 0x00, 0x80, 0x06, 0x00, 0x00,
  0x90, 0x06, 0x00, 0x00, 0x54, 0x0d, 0x00, 0x00, 0x03, 0x00, 0x00, 0x00,
  0x01, 0x00, 0x00, 0x00, 0x10, 0x00, 0x00, 0x00, 0x00, 0x00, 0x0a, 0x00,
  0x10, 0x00, 0x0c, 0x00, 0x08, 0x00, 0x04, 0x00, 0x0a, 0x00, 0x00, 0x00,
  0x0c, 0x00, 0x00, 0x00, 0x1c, 0x00, 0x00, 0x00, 0x3c, 0x00, 0x00, 0x00,
  0x0f, 0x00, 0x00, 0x00, 0x73, 0x65, 0x72, 0x76, 0x69, 0x6e, 0x67, 0x5f,
  0x64, 0x65, 0x66, 0x61, 0x75, 0x6c, 0x74, 0x00, 0x01, 0x00, 0x00, 0x00,
  0x04, 0x00, 0x00, 0x00, 0x9c, 0xff, 0xff, 0xff, 0x0a, 0x00, 0x00, 0x00,
  0x04, 0x00, 0x00, 0x00, 0x08, 0x00, 0x00, 0x00, 0x6f, 0x75, 0x74, 0x70,
  0x75, 0x74, 0x5f, 0x30, 0x00, 0x00, 0x00, 0x00, 0x01, 0x00, 0x00, 0x00,
  0x04, 0x00, 0x00, 0x00, 0x66, 0xf9, 0xff, 0xff, 0x04, 0x00, 0x00, 0x00,
  0x01, 0x00, 0x00, 0x00, 0x78, 0x00, 0x00, 0x00, 0x02, 0x00, 0x00, 0x00,
  0x34, 0x00, 0x00, 0x00, 0x04, 0x00, 0x00, 0x00, 0xdc, 0xff, 0xff, 0xff,
  0x0d, 0x00, 0x00, 0x00, 0x04, 0x00, 0x00, 0x00, 0x13, 0x00, 0x00, 0x00,
  0x43, 0x4f, 0x4e, 0x56, 0x45, 0x52, 0x53, 0x49, 0x4f, 0x4e, 0x5f, 0x4d,
  0x45, 0x54, 0x41, 0x44, 0x41, 0x54, 0x41, 0x00, 0x08, 0x00, 0x0c, 0x00,
  0x08, 0x00, 0x04, 0x00, 0x08, 0x00, 0x00, 0x00, 0x0c, 0x00, 0x00, 0x00,
  0x04, 0x00, 0x00, 0x00, 0x13, 0x00, 0x00, 0x00, 0x6d, 0x69, 0x6e, 0x5f,
  0x72, 0x75, 0x6e, 0x74, 0x69, 0x6d, 0x65, 0x5f, 0x76, 0x65, 0x72, 0x73,
  0x69, 0x6f, 0x6e, 0x00, 0x0e, 0x00, 0x00, 0x00, 0x98, 0x05, 0x00, 0x00,
  0x90, 0x05, 0x00, 0x00, 0x70, 0x05, 0x00, 0x00, 0x38, 0x05, 0x00, 0x00,
  0x00, 0x05, 0x00, 0x00, 0x28, 0x04, 0x00, 0x00, 0xc8, 0x03, 0x00, 0x00,
  0xac, 0x00, 0x00, 0x00, 0xa4, 0x00, 0x00, 0x00, 0x9c, 0x00, 0x00, 0x00,
  0x94, 0x00, 0x00, 0x00, 0x8c, 0x00, 0x00, 0x00, 0x6c, 0x00, 0x00, 0x00,
  0x04, 0x00, 0x00, 0x00, 0x0e, 0xfa, 0xff, 0xff, 0x04, 0x00, 0x00, 0x00,
  0x58, 0x00, 0x00, 0x00, 0x0c, 0x00, 0x00, 0x00, 0x08, 0x00, 0x0e, 0x00,
  0x08, 0x00, 0x04, 0x00, 0x08, 0x00, 0x00, 0x00, 0x10, 0x00, 0x00, 0x00,
  0x28, 0x00, 0x00, 0x00, 0x00, 0x00, 0x06, 0x00, 0x08, 0x00, 0x04, 0x00,
  0x06, 0x00, 0x00, 0x00, 0x04, 0x00, 0x00, 0x00, 0x01, 0x00, 0x00, 0x00,
  0xeb, 0x03, 0x00, 0x00, 0x00, 0x00, 0x0a, 0x00, 0x10, 0x00, 0x0c, 0x00,
  0x08, 0x00, 0x04, 0x00, 0x0a, 0x00, 0x00, 0x00, 0x03, 0x00, 0x00, 0x00,
  0x02, 0x00, 0x00, 0x00, 0x04, 0x00, 0x00, 0x00, 0x06, 0x00, 0x00, 0x00,
  0x32, 0x2e, 0x31, 0x31, 0x2e, 0x31, 0x00, 0x00, 0x72, 0xfa, 0xff, 0xff,
  0x04, 0x00, 0x00, 0x00, 0x10, 0x00, 0x00, 0x00, 0x31, 0x2e, 0x31, 0x34,
  0x2e, 0x30, 0x00, 0x00, 0x00, 0x00, 0x00, 0x00, 0x00, 0x00, 0x00, 0x00,
  0x5c, 0xfa, 0xff, 0xff, 0x60, 0xfa, 0xff, 0xff, 0x64, 0xfa, 0xff, 0xff,
  0x68, 0xfa, 0xff, 0xff, 0x9e, 0xfa, 0xff, 0xff, 0x04, 0x00, 0x00, 0x00,
  0x0c, 0x03, 0x00, 0x00, 0x1b, 0xf1, 0xf6, 0x3c, 0x19, 0x38, 0x29, 0xe3,
  0x35, 0xd7, 0x19, 0x38, 0xd2, 0xd1, 0xe6, 0x4c, 0x14, 0x41, 0xde, 0xe1,
  0x4d, 0xf6, 0x53, 0x20, 0xc7, 0x47, 0xe9, 0xee, 0xc6, 0xc1, 0x39, 0x27,
  0x3d, 0xca, 0xc6, 0x37, 0xe2, 0x51, 0x0b, 0xb7, 0x0a, 0x35, 0x28, 0x05,
  0x20, 0x25, 0x19, 0x26, 0x43, 0xc5, 0x1d, 0x01, 0x12, 0x40, 0xcd, 0x52,
  0x29, 0x5f, 0xd7, 0xf0, 0xf0, 0x2f, 0xd9, 0x11, 0x0e, 0x0e, 0x36, 0xe6,
  0xe9, 0x15, 0x6a, 0x61, 0x6a, 0x50, 0x00, 0xdb, 0x17, 0x33, 0x4a, 0xf8,
  0xbd, 0xb8, 0x1e, 0xd0, 0x2f, 0x51, 0x64, 0x0d, 0xdd, 0x29, 0xde, 0x38,
  0xc1, 0x3c, 0x05, 0x2d, 0x00, 0x23, 0x5c, 0xcb, 0x46, 0xe0, 0x29, 0x09,
  0x64, 0x15, 0xdf, 0xc8, 0xee, 0x3b, 0x30, 0xcb, 0xfd, 0xef, 0xc6, 0x08,
  0x39, 0xbb, 0x14, 0xe8, 0x3e, 0x00, 0x2b, 0xef, 0x3f, 0x16, 0xa7, 0x29,
  0x27, 0x0e, 0x35, 0x0e, 0x06, 0xd8, 0xe9, 0x1d, 0x2d, 0xbe, 0x0b, 0xb5,
  0xc1, 0x0c, 0x09, 0xcb, 0x3b, 0x51, 0x3b, 0xeb, 0x36, 0x5a, 0xea, 0x3d,
  0x16, 0x57, 0xb8, 0x19, 0x37, 0x0c, 0x0a, 0xc9, 0xb8, 0xb4, 0x34, 0xda,
  0xc5, 0x1c, 0xd3, 0xfa, 0xb9, 0xd0, 0xcb, 0x1f, 0x2e, 0x2c, 0xeb, 0xdd,
  0xe6, 0x38, 0xdd, 0xdf, 0xd2, 0xef, 0x32, 0x30, 0xb1, 0xb8, 0x19, 0xbe,
  0x3c, 0xb6, 0xd7, 0xc8, 0xd5, 0xa3, 0xff, 0xe5, 0x38, 0x05, 0x1f, 0x0a,
  0xcc, 0x06, 0x4a, 0xd9, 0x0c, 0xb4, 0xe1, 0xac, 0x1e, 0x2c, 0x14, 0xc1,
  0x13, 0xdd, 0xf7, 0xb3, 0xab, 0xde, 0xc2, 0x29, 0xd2, 0x47, 0x0c, 0xdd,
  0x7f, 0x25, 0x1b, 0x62, 0xf4, 0x3a, 0xde, 0x63, 0xfe, 0x51, 0x3c, 0xf6,
  0xd7, 0xe7, 0xe0, 0xcc, 0x03, 0x5a, 0xff, 0x22, 0x15, 0x13, 0x17, 0x3f,
  0x31, 0xf1, 0xf5, 0xed, 0x6d, 0x5f, 0xf6, 0x27, 0xf1, 0x47, 0xf4, 0x0c,
  0x3d, 0xc5, 0x3a, 0x19, 0x16, 0xb8, 0x00, 0xf7, 0xbd, 0x28, 0xac, 0x15,
  0xb0, 0x57, 0xbf, 0x01, 0x47, 0x4c, 0x2a, 0x2f, 0x3a, 0x00, 0x5e, 0x04,
  0x69, 0xf8, 0x3e, 0xc4, 0xa7, 0xf5, 0xf7, 0xe0, 0x68, 0x5c, 0xec, 0xf2,
  0x1f, 0x0c, 0x70, 0xf2, 0x1b, 0xc0, 0xe7, 0xff, 0x4c, 0x17, 0xbd, 0xec,
  0xb7, 0xf5, 0x1a, 0x32, 0x21, 0x54, 0x22, 0x01, 0xc3, 0x41, 0x07, 0xdc,
  0xfc, 0xf6, 0x04, 0x32, 0x29, 0xdb, 0x21, 0xd4, 0x31, 0xe4, 0x5f, 0x20,
  0x53, 0x37, 0x43, 0x1b, 0x2c, 0x2c, 0x28, 0x03, 0x42, 0xb4, 0x13, 0xab,
  0xea, 0xf6, 0xb1, 0xda, 0xab, 0x36, 0xbb, 0xca, 0x39, 0xa8, 0x03, 0xdf,
  0x38, 0xb9, 0x05, 0xde, 0xb5, 0xc2, 0xd0, 0xb9, 0xf6, 0xbc, 0x42, 0xf5,
  0x38, 0x42, 0xcf, 0xf5, 0x3f, 0x1b, 0x59, 0x5f, 0x42, 0x1b, 0x0c, 0x08,
  0x3d, 0xfd, 0xf9, 0xd3, 0x0b, 0x49, 0x27, 0x47, 0x4e, 0x03, 0x50, 0x02,
  0x39, 0xa1, 0xad, 0xd0, 0x22, 0x02, 0xf1, 0x14, 0xc0, 0x15, 0x14, 0xc5,
  0x21, 0xe1, 0xf1, 0xf1, 0x10, 0x04, 0xb0, 0x23, 0xb5, 0x44, 0x49, 0xf4,
  0xd4, 0xe3, 0x39, 0x29, 0xbb, 0xb9, 0xbd, 0xe9, 0x4d, 0x46, 0xe4, 0xbc,
  0xbd, 0x00, 0x00, 0x58, 0xec, 0xc3, 0xbe, 0x5a, 0xeb, 0x46, 0xf8, 0x51,
  0x52, 0x3d, 0x51, 0xcb, 0x34, 0xe7, 0xda, 0x51, 0x0e, 0xf5, 0xf7, 0x5d,
  0x0e, 0x25, 0x2f, 0x33, 0x34, 0x50, 0x1a, 0xf7, 0xf6, 0x09, 0xe3, 0x19,
  0xf3, 0xcc, 0x1a, 0x1b, 0xcf, 0xb6, 0xf9, 0xff, 0x45, 0xb4, 0xc2, 0x9d,
  0xa7, 0x12, 0xd6, 0x9f, 0xfe, 0x1f, 0xf4, 0x34, 0x2a, 0x03, 0x3a, 0xd8,
  0x14, 0x19, 0xb7, 0x1c, 0x11, 0xce, 0xff, 0xe2, 0x4d, 0x01, 0xe4, 0x15,
  0xb1, 0x47, 0x31, 0x2e, 0x3b, 0xc3, 0xb4, 0x28, 0xc4, 0xcd, 0x12, 0x5b,
  0x5c, 0xba, 0x41, 0xe0, 0x01, 0xf9, 0xfe, 0x30, 0x33, 0xed, 0xd6, 0xc7,
  0x09, 0xcb, 0xe0, 0xb7, 0xa8, 0xe6, 0xce, 0xc8, 0x97, 0xc6, 0x4b, 0xf6,
  0x17, 0xff, 0xac, 0xba, 0x9e, 0xdd, 0xfb, 0x09, 0xdc, 0x27, 0x62, 0xb3,
  0xe0, 0x0f, 0xfd, 0xc4, 0xcc, 0x0d, 0x16, 0x0b, 0x3c, 0x9b, 0xa8, 0x5f,
  0x9b, 0xec, 0xc8, 0x1b, 0x27, 0xb6, 0x37, 0x41, 0xce, 0x32, 0xab, 0xca,
  0xf5, 0xc2, 0x3e, 0xdd, 0x46, 0xc5, 0xcd, 0x1f, 0xe0, 0xb6, 0xa7, 0xfb,
  0x26, 0xf3, 0x3c, 0xbc, 0xb3, 0xb1, 0x10, 0xed, 0x05, 0x14, 0x13, 0xf4,
  0x18, 0xc8, 0x20, 0x2d, 0x3b, 0x06, 0x26, 0x14, 0x29, 0xae, 0x3d, 0xb5,
  0x1c, 0x0b, 0xf8, 0xd9, 0xd3, 0xfc, 0xc9, 0x0d, 0xde, 0xdf, 0x29, 0xf7,
  0x0e, 0xfe, 0xb4, 0x14, 0x0b, 0xcb, 0xd9, 0x00, 0x51, 0x00, 0xf8, 0xd7,
  0x31, 0xca, 0xca, 0xf7, 0x23, 0x32, 0xea, 0x26, 0xc0, 0xe3, 0x37, 0xf8,
  0xcb, 0xe1, 0x2f, 0xec, 0x30, 0xf3, 0xf7, 0x4f, 0xc5, 0x3e, 0x28, 0x13,
  0x52, 0xe2, 0xfa, 0xe6, 0x2b, 0xcc, 0xef, 0xe7, 0x2a, 0x3e, 0x5e, 0x5a,
  0xf6, 0xe2, 0x3a, 0x09, 0xe1, 0xcd, 0x3a, 0xd0, 0x32, 0xd7, 0xdb, 0xe2,
  0x1a, 0x53, 0xd0, 0x2c, 0xcc, 0xa9, 0x34, 0xb7, 0xa1, 0xd3, 0x1d, 0xff,
  0xee, 0xf7, 0xcf, 0x10, 0x1d, 0x03, 0x4b, 0x43, 0xc4, 0x34, 0xb0, 0xe5,
  0x24, 0xa4, 0x1b, 0x0a, 0xce, 0xfc, 0x00, 0xe6, 0xb8, 0xe4, 0xbd, 0xbd,
  0xc1, 0xcc, 0xff, 0xcc, 0xd6, 0x22, 0xd9, 0x48, 0xd6, 0x43, 0xe0, 0xbd,
  0xf4, 0xf2, 0xad, 0xc4, 0x2b, 0xdc, 0xcc, 0xb5, 0x51, 0x43, 0x19, 0xcc,
  0xc4, 0x27, 0x44, 0xfd, 0xfe, 0x16, 0x19, 0x4d, 0x28, 0x62, 0x58, 0xd7,
  0x5b, 0x4f, 0x2c, 0x23, 0xfb, 0x22, 0xda, 0x0a, 0x51, 0x1a, 0xe0, 0x5e,
  0xdc, 0x1b, 0x1c, 0xc0, 0xed, 0x20, 0x4f, 0x92, 0x20, 0x56, 0xdc, 0x0d,
  0x1c, 0xb2, 0x0c, 0xfe, 0xb6, 0xfd, 0xff, 0xff, 0x04, 0x00, 0x00, 0x00,
  0x50, 0x00, 0x00, 0x00, 0xe2, 0xff, 0xff, 0xff, 0x56, 0x00, 0x00, 0x00,
  0xaa, 0xff, 0xff, 0xff, 0x66, 0x00, 0x00, 0x00, 0x02, 0x00, 0x00, 0x00,
  0x65, 0x00, 0x00, 0x00, 0x4a, 0x00, 0x00, 0x00, 0xfc, 0xff, 0xff, 0xff,
  0x31, 0x00, 0x00, 0x00, 0xf0, 0xff, 0xff, 0xff, 0xe6, 0xff, 0xff, 0xff,
  0x32, 0x00, 0x00, 0x00, 0x6c, 0x00, 0x00, 0x00, 0x68, 0x00, 0x00, 0x00,
  0x44, 0x00, 0x00, 0x00, 0xf3, 0xff, 0xff, 0xff, 0xdf, 0xff, 0xff, 0xff,
  0x94, 0x00, 0x00, 0x00, 0xe6, 0xff, 0xff, 0xff, 0x8e, 0x00, 0x00, 0x00,
  0x12, 0xfe, 0xff, 0xff, 0x04, 0x00, 0x00, 0x00, 0xc8, 0x00, 0x00, 0x00,
  0x28, 0xc2, 0xc7, 0xfc, 0x67, 0x07, 0x54, 0xc6, 0xfb, 0xcb, 0x20, 0x13,
  0x38, 0x78, 0x2a, 0xb4, 0x05, 0xf4, 0xd8, 0x33, 0xcc, 0xab, 0x33, 0x46,
  0x2d, 0x0e, 0xd8, 0xa9, 0xb6, 0x14, 0xdd, 0xd5, 0x45, 0x30, 0x48, 0x4a,
  0xd8, 0x30, 0xf2, 0xd0, 0xed, 0xad, 0xef, 0x54, 0xe1, 0xcd, 0xd6, 0x0c,
  0xda, 0xf5, 0x21, 0x33, 0xf8, 0xb2, 0xf5, 0xa8, 0x3f, 0xbd, 0xa7, 0xaf,
  0x39, 0xff, 0x62, 0xed, 0xd1, 0x45, 0xe1, 0xf2, 0xf4, 0x48, 0x59, 0x37,
  0xc4, 0x8c, 0x0a, 0xe0, 0xeb, 0xc2, 0x62, 0x24, 0xf9, 0x25, 0xa5, 0xdb,
  0xcb, 0x6e, 0xd5, 0xf7, 0xae, 0x43, 0x53, 0x30, 0xf2, 0x3e, 0x0b, 0xcc,
  0xf8, 0x4c, 0x4f, 0x12, 0xd9, 0x73, 0xfa, 0x48, 0xf7, 0x8c, 0x28, 0x7f,
  0xbb, 0xce, 0x43, 0x41, 0xc9, 0x55, 0x06, 0xa1, 0x06, 0x63, 0xa4, 0x52,
  0x60, 0x39, 0xe3, 0xc0, 0x35, 0x54, 0x14, 0xf9, 0xeb, 0x1e, 0x2e, 0x25,
  0xb6, 0xcc, 0x02, 0xf3, 0x39, 0xf3, 0xe4, 0xd1, 0xf0, 0x61, 0x1b, 0x4f,
  0xe8, 0x51, 0x42, 0x8b, 0x5c, 0xe5, 0xc3, 0x58, 0x35, 0xe9, 0xa1, 0x26,
  0x4c, 0x0a, 0xf9, 0x69, 0x32, 0x17, 0x25, 0x2a, 0x48, 0x3e, 0x94, 0xd2,
  0xe3, 0x0c, 0x5e, 0x13, 0x0e, 0xca, 0xe4, 0x4a, 0xb8, 0x41, 0xec, 0xce,
  0x27, 0xcd, 0xe9, 0xfe, 0x4f, 0x44, 0xe2, 0x07, 0x3b, 0xa2, 0xd7, 0x26,
  0xc9, 0xf1, 0x2a, 0xee, 0xf7, 0x5a, 0x15, 0x6d, 0xe6, 0xfe, 0xff, 0xff,
  0x04, 0x00, 0x00, 0x00, 0x28, 0x00, 0x00, 0x00, 0x4f, 0x00, 0x00, 0x00,
  0x3e, 0x00, 0x00, 0x00, 0xe9, 0xff, 0xff, 0xff, 0xcf, 0xff, 0xff, 0xff,
  0x05, 0x00, 0x00, 0x00, 0x2b, 0x01, 0x00, 0x00, 0x16, 0x00, 0x00, 0x00,
  0x45, 0x00, 0x00, 0x00, 0x29, 0x00, 0x00, 0x00, 0x56, 0x00, 0x00, 0x00,
  0x1a, 0xff, 0xff, 0xff, 0x04, 0x00, 0x00, 0x00, 0x28, 0x00, 0x00, 0x00,
  0x49, 0x51, 0x74, 0xc4, 0x17, 0x85, 0x89, 0xdb, 0x7f, 0x2d, 0x3a, 0xd1,
  0xa3, 0x89, 0x8f, 0xd5, 0xf3, 0x20, 0xc8, 0x20, 0x9f, 0x65, 0xb6, 0x90,
  0x54, 0x83, 0x6d, 0x38, 0x3e, 0xae, 0x12, 0xeb, 0x06, 0x45, 0xf4, 0xaa,
  0x62, 0xe8, 0x9f, 0x94, 0x4e, 0xff, 0xff, 0xff, 0x04, 0x00, 0x00, 0x00,
  0x10, 0x00, 0x00, 0x00, 0x61, 0xff, 0xff, 0xff, 0xc2, 0x00, 0x00, 0x00,
  0xe0, 0xff, 0xff, 0xff, 0xdd, 0xff, 0xff, 0xff, 0x38, 0xff, 0xff, 0xff,
  0x3c, 0xff, 0xff, 0xff, 0x0f, 0x00, 0x00, 0x00, 0x4d, 0x4c, 0x49, 0x52,
  0x20, 0x43, 0x6f, 0x6e, 0x76, 0x65, 0x72, 0x74, 0x65, 0x64, 0x2e, 0x00,
  0x01, 0x00, 0x00, 0x00, 0x14, 0x00, 0x00, 0x00, 0x00, 0x00, 0x0e, 0x00,
  0x18, 0x00, 0x14, 0x00, 0x10, 0x00, 0x0c, 0x00, 0x08, 0x00, 0x04, 0x00,
  0x0e, 0x00, 0x00, 0x00, 0x14, 0x00, 0x00, 0x00, 0x1c, 0x00, 0x00, 0x00,
  0x28, 0x01, 0x00, 0x00, 0x2c, 0x01, 0x00, 0x00, 0x30, 0x01, 0x00, 0x00,
  0x04, 0x00, 0x00, 0x00, 0x6d, 0x61, 0x69, 0x6e, 0x00, 0x00, 0x00, 0x00,
  0x04, 0x00, 0x00, 0x00, 0xd0, 0x00, 0x00, 0x00, 0x88, 0x00, 0x00, 0x00,
  0x50, 0x00, 0x00, 0x00, 0x14, 0x00, 0x00, 0x00, 0x00, 0x00, 0x0e, 0x00,
  0x1a, 0x00, 0x14, 0x00, 0x10, 0x00, 0x0c, 0x00, 0x0b, 0x00, 0x04, 0x00,
  0x0e, 0x00, 0x00, 0x00, 0x1c, 0x00, 0x00, 0x00, 0x00, 0x00, 0x00, 0x09,
  0x1c, 0x00, 0x00, 0x00, 0x20, 0x00, 0x00, 0x00, 0x01, 0x00, 0x00, 0x00,
  0x00, 0x00, 0x06, 0x00, 0x08, 0x00, 0x04, 0x00, 0x06, 0x00, 0x00, 0x00,
  0x00, 0x00, 0x80, 0x3f, 0x01, 0x00, 0x00, 0x00, 0x0a, 0x00, 0x00, 0x00,
  0x01, 0x00, 0x00, 0x00, 0x09, 0x00, 0x00, 0x00, 0x96, 0xff, 0xff, 0xff,
  0x14, 0x00, 0x00, 0x00, 0x00, 0x00, 0x00, 0x08, 0x10, 0x00, 0x00, 0x00,
  0x14, 0x00, 0x00, 0x00, 0x04, 0x00, 0x04, 0x00, 0x04, 0x00, 0x00, 0x00,
  0x01, 0x00, 0x00, 0x00, 0x09, 0x00, 0x00, 0x00, 0x03, 0x00, 0x00, 0x00,
  0x08, 0x00, 0x00, 0x00, 0x02, 0x00, 0x00, 0x00, 0x01, 0x00, 0x00, 0x00,
  0xca, 0xff, 0xff, 0xff, 0x10, 0x00, 0x00, 0x00, 0x00, 0x00, 0x00, 0x08,
  0x10, 0x00, 0x00, 0x00, 0x14, 0x00, 0x00, 0x00, 0xba, 0xff, 0xff, 0xff,
  0x00, 0x00, 0x00, 0x01, 0x01, 0x00, 0x00, 0x00, 0x08, 0x00, 0x00, 0x00,
  0x03, 0x00, 0x00, 0x00, 0x07, 0x00, 0x00, 0x00, 0x04, 0x00, 0x00, 0x00,
  0x03, 0x00, 0x00, 0x00, 0x00, 0x00, 0x0e, 0x00, 0x16, 0x00, 0x00, 0x00,
  0x10, 0x00, 0x0c, 0x00, 0x0b, 0x00, 0x04, 0x00, 0x0e, 0x00, 0x00, 0x00,
  0x18, 0x00, 0x00, 0x00, 0x00, 0x00, 0x00, 0x08, 0x18, 0x00, 0x00, 0x00,
  0x1c, 0x00, 0x00, 0x00, 0x00, 0x00, 0x06, 0x00, 0x08, 0x00, 0x07, 0x00,
  0x06, 0x00, 0x00, 0x00, 0x00, 0x00, 0x00, 0x01, 0x01, 0x00, 0x00, 0x00,
  0x07, 0x00, 0x00, 0x00, 0x03, 0x00, 0x00, 0x00, 0x00, 0x00, 0x00, 0x00,
  0x06, 0x00, 0x00, 0x00, 0x05, 0x00, 0x00, 0x00, 0x01, 0x00, 0x00, 0x00,
  0x0a, 0x00, 0x00, 0x00, 0x01, 0x00, 0x00, 0x00, 0x00, 0x00, 0x00, 0x00,
  0x0b, 0x00, 0x00, 0x00, 0xf8, 0x04, 0x00, 0x00, 0x68, 0x04, 0x00, 0x00,
  0xfc, 0x03, 0x00, 0x00, 0x80, 0x03, 0x00, 0x00, 0x14, 0x03, 0x00, 0x00,
  0xa0, 0x02, 0x00, 0x00, 0x34, 0x02, 0x00, 0x00, 0x98, 0x01, 0x00, 0x00,
  0xf4, 0x00, 0x00, 0x00, 0x70, 0x00, 0x00, 0x00, 0x04, 0x00, 0x00, 0x00,
  0x4a, 0xfb, 0xff, 0xff, 0x00, 0x00, 0x00, 0x01, 0x14, 0x00, 0x00, 0x00,
  0x30, 0x00, 0x00, 0x00, 0x0b, 0x00, 0x00, 0x00, 0x00, 0x00, 0x00, 0x09,
  0x44, 0x00, 0x00, 0x00, 0x34, 0xfb, 0xff, 0xff, 0x08, 0x00, 0x00, 0x00,
  0x10, 0x00, 0x00, 0x00, 0x01, 0x00, 0x00, 0x00, 0x80, 0xff, 0xff, 0xff,
  0xff, 0xff, 0xff, 0xff, 0x01, 0x00, 0x00, 0x00, 0x00, 0x00, 0x80, 0x3b,
  0x19, 0x00, 0x00, 0x00, 0x53, 0x74, 0x61, 0x74, 0x65, 0x66, 0x75, 0x6c,
  0x50, 0x61, 0x72, 0x74, 0x69, 0x74, 0x69, 0x6f, 0x6e, 0x65, 0x64, 0x43,
  0x61, 0x6c, 0x6c, 0x3a, 0x30, 0x00, 0x00, 0x00, 0x02, 0x00, 0x00, 0x00,
  0x01, 0x00, 0x00, 0x00, 0x04, 0x00, 0x00, 0x00, 0xb2, 0xfb, 0xff, 0xff,
  0x00, 0x00, 0x00, 0x01, 0x14, 0x00, 0x00, 0x00, 0x30, 0x00, 0x00, 0x00,
  0x0a, 0x00, 0x00, 0x00, 0x00, 0x00, 0x00, 0x09, 0x5c, 0x00, 0x00, 0x00,
  0x9c, 0xfb, 0xff, 0xff, 0x08, 0x00, 0x00, 0x00, 0x10, 0x00, 0x00, 0x00,
  0x01, 0x00, 0x00, 0x00, 0x3a, 0x00, 0x00, 0x00, 0x00, 0x00, 0x00, 0x00,
  0x01, 0x00, 0x00, 0x00, 0xd2, 0xec, 0xf0, 0x3d, 0x32, 0x00, 0x00, 0x00,
  0x73, 0x65, 0x71, 0x75, 0x65, 0x6e, 0x74, 0x69, 0x61, 0x6c, 0x2f, 0x79,
  0x5f, 0x70, 0x72, 0x65, 0x64, 0x2f, 0x4d, 0x61, 0x74, 0x4d, 0x75, 0x6c,
  0x3b, 0x73, 0x65, 0x71, 0x75, 0x65, 0x6e, 0x74, 0x69, 0x61, 0x6c, 0x2f,
  0x79, 0x5f, 0x70, 0x72, 0x65, 0x64, 0x2f, 0x42, 0x69, 0x61, 0x73, 0x41,
  0x64, 0x64, 0x00, 0x00, 0x02, 0x00, 0x00, 0x00, 0x01, 0x00, 0x00, 0x00,
  0x04, 0x00, 0x00, 0x00, 0x32, 0xfc, 0xff, 0xff, 0x00, 0x00, 0x00, 0x01,
  0x14, 0x00, 0x00, 0x00, 0x34, 0x00, 0x00, 0x00, 0x09, 0x00, 0x00, 0x00,
  0x00, 0x00, 0x00, 0x09, 0x7c, 0x00, 0x00, 0x00, 0x1c, 0xfc, 0xff, 0xff,
  0x08, 0x00, 0x00, 0x00, 0x14, 0x00, 0x00, 0x00, 0x01, 0x00, 0x00, 0x00,
  0x80, 0xff, 0xff, 0xff, 0xff, 0xff, 0xff, 0xff, 0x00, 0x00, 0x00, 0x00,
  0x01, 0x00, 0x00, 0x00, 0xef, 0x53, 0xe2, 0x3d, 0x4c, 0x00, 0x00, 0x00,
  0x73, 0x65, 0x71, 0x75, 0x65, 0x6e, 0x74, 0x69, 0x61, 0x6c, 0x2f, 0x64,
  0x65, 0x6e, 0x73, 0x65, 0x5f, 0x31, 0x2f, 0x4d, 0x61, 0x74, 0x4d, 0x75,
  0x6c, 0x3b, 0x73, 0x65, 0x71, 0x75, 0x65, 0x6e, 0x74, 0x69, 0x61, 0x6c,
  0x2f, 0x64, 0x65, 0x6e, 0x73, 0x65, 0x5f, 0x31, 0x2f, 0x52, 0x65, 0x6c,
  0x75, 0x3b, 0x73, 0x65, 0x71, 0x75, 0x65, 0x6e, 0x74, 0x69, 0x61, 0x6c,
  0x2f, 0x64, 0x65, 0x6e, 0x73, 0x65, 0x5f, 0x31, 0x2f, 0x42, 0x69, 0x61,
  0x73, 0x41, 0x64, 0x64, 0x00, 0x00, 0x00, 0x00, 0x02, 0x00, 0x00, 0x00,
  0x01, 0x00, 0x00, 0x00, 0x0a, 0x00, 0x00, 0x00, 0xd2, 0xfc, 0xff, 0xff,
  0x00, 0x00, 0x00, 0x01, 0x14, 0x00, 0x00, 0x00, 0x34, 0x00, 0x00, 0x00,
  0x08, 0x00, 0x00, 0x00, 0x00, 0x00, 0x00, 0x09, 0x74, 0x00, 0x00, 0x00,
  0xbc, 0xfc, 0xff, 0xff, 0x08, 0x00, 0x00, 0x00, 0x14, 0x00, 0x00, 0x00,
  0x01, 0x00, 0x00, 0x00, 0x80, 0xff, 0xff, 0xff, 0xff, 0xff, 0xff, 0xff,
  0x00, 0x00, 0x00, 0x00, 0x01, 0x00, 0x00, 0x00, 0x5e, 0xab, 0x30, 0x3e,
  0x46, 0x00, 0x00, 0x00, 0x73, 0x65, 0x71, 0x75, 0x65, 0x6e, 0x74, 0x69,
  0x61, 0x6c, 0x2f, 0x64, 0x65, 0x6e, 0x73, 0x65, 0x2f, 0x4d, 0x61, 0x74,
  0x4d, 0x75, 0x6c, 0x3b, 0x73, 0x65, 0x71, 0x75, 0x65, 0x6e, 0x74, 0x69,
  0x61, 0x6c, 0x2f, 0x64, 0x65, 0x6e, 0x73, 0x65, 0x2f, 0x52, 0x65, 0x6c,
  0x75, 0x3b, 0x73, 0x65, 0x71, 0x75, 0x65, 0x6e, 0x74, 0x69, 0x61, 0x6c,
  0x2f, 0x64, 0x65, 0x6e, 0x73, 0x65, 0x2f, 0x42, 0x69, 0x61, 0x73, 0x41,
  0x64, 0x64, 0x00, 0x00, 0x02, 0x00, 0x00, 0x00, 0x01, 0x00, 0x00, 0x00,
  0x14, 0x00, 0x00, 0x00, 0x6a, 0xfd, 0xff, 0xff, 0x00, 0x00, 0x00, 0x01,
  0x14, 0x00, 0x00, 0x00, 0x34, 0x00, 0x00, 0x00, 0x07, 0x00, 0x00, 0x00,
  0x00, 0x00, 0x00, 0x09, 0x44, 0x00, 0x00, 0x00, 0x54, 0xfd, 0xff, 0xff,
  0x08, 0x00, 0x00, 0x00, 0x14, 0x00, 0x00, 0x00, 0x01, 0x00, 0x00, 0x00,
  0x00, 0x00, 0x00, 0x00, 0x00, 0x00, 0x00, 0x00, 0x00, 0x00, 0x00, 0x00,
  0x01, 0x00, 0x00, 0x00, 0xbc, 0x4d, 0x7c, 0x3b, 0x17, 0x00, 0x00, 0x00,
  0x73, 0x65, 0x71, 0x75, 0x65, 0x6e, 0x74, 0x69, 0x61, 0x6c, 0x2f, 0x64,
  0x65, 0x6e, 0x73, 0x65, 0x2f, 0x4d, 0x61, 0x74, 0x4d, 0x75, 0x6c, 0x00,
  0x02, 0x00, 0x00, 0x00, 0x14, 0x00, 0x00, 0x00, 0x27, 0x00, 0x00, 0x00,
  0xd2, 0xfd, 0xff, 0xff, 0x00, 0x00, 0x00, 0x01, 0x14, 0x00, 0x00, 0x00,
  0x30, 0x00, 0x00, 0x00, 0x06, 0x00, 0x00, 0x00, 0x00, 0x00, 0x00, 0x02,
  0x50, 0x00, 0x00, 0x00, 0xbc, 0xfd, 0xff, 0xff, 0x08, 0x00, 0x00, 0x00,
  0x10, 0x00, 0x00, 0x00, 0x01, 0x00, 0x00, 0x00, 0x00, 0x00, 0x00, 0x00,
  0x00, 0x00, 0x00, 0x00, 0x01, 0x00, 0x00, 0x00, 0xa9, 0xa9, 0x7d, 0x3a,
  0x27, 0x00, 0x00, 0x00, 0x73, 0x65, 0x71, 0x75, 0x65, 0x6e, 0x74, 0x69,
  0x61, 0x6c, 0x2f, 0x64, 0x65, 0x6e, 0x73, 0x65, 0x2f, 0x42, 0x69, 0x61,
  0x73, 0x41, 0x64, 0x64, 0x2f, 0x52, 0x65, 0x61, 0x64, 0x56, 0x61, 0x72,
  0x69, 0x61, 0x62, 0x6c, 0x65, 0x4f, 0x70, 0x00, 0x01, 0x00, 0x00, 0x00,
  0x14, 0x00, 0x00, 0x00, 0x42, 0xfe, 0xff, 0xff, 0x00, 0x00, 0x00, 0x01,
  0x14, 0x00, 0x00, 0x00, 0x30, 0x00, 0x00, 0x00, 0x05, 0x00, 0x00, 0x00,
  0x00, 0x00, 0x00, 0x09, 0x44, 0x00, 0x00, 0x00, 0x2c, 0xfe, 0xff, 0xff,
  0x08, 0x00, 0x00, 0x00, 0x10, 0x00, 0x00, 0x00, 0x01, 0x00, 0x00, 0x00,
  0x00, 0x00, 0x00, 0x00, 0x00, 0x00, 0x00, 0x00, 0x01, 0x00, 0x00, 0x00,
  0xf7, 0xf6, 0x91, 0x3b, 0x19, 0x00, 0x00, 0x00, 0x73, 0x65, 0x71, 0x75,
  0x65, 0x6e, 0x74, 0x69, 0x61, 0x6c, 0x2f, 0x64, 0x65, 0x6e, 0x73, 0x65,
  0x5f, 0x31, 0x2f, 0x4d, 0x61, 0x74, 0x4d, 0x75, 0x6c, 0x00, 0x00, 0x00,
  0x02, 0x00, 0x00, 0x00, 0x0a, 0x00, 0x00, 0x00, 0x14, 0x00, 0x00, 0x00,
  0xaa, 0xfe, 0xff, 0xff, 0x00, 0x00, 0x00, 0x01, 0x14, 0x00, 0x00, 0x00,
  0x34, 0x00, 0x00, 0x00, 0x04, 0x00, 0x00, 0x00, 0x00, 0x00, 0x00, 0x02,
  0x58, 0x00, 0x00, 0x00, 0x94, 0xfe, 0xff, 0xff, 0x08, 0x00, 0x00, 0x00,
  0x14, 0x00, 0x00, 0x00, 0x01, 0x00, 0x00, 0x00, 0x00, 0x00, 0x00, 0x00,
  0x00, 0x00, 0x00, 0x00, 0x00, 0x00, 0x00, 0x00, 0x01, 0x00, 0x00, 0x00,
  0xff, 0x76, 0x49, 0x3a, 0x29, 0x00, 0x00, 0x00, 0x73, 0x65, 0x71, 0x75,
  0x65, 0x6e, 0x74, 0x69, 0x61, 0x6c, 0x2f, 0x64, 0x65, 0x6e, 0x73, 0x65,
  0x5f, 0x31, 0x2f, 0x42, 0x69, 0x61, 0x73, 0x41, 0x64, 0x64, 0x2f, 0x52,
  0x65, 0x61, 0x64, 0x56, 0x61, 0x72, 0x69, 0x61, 0x62, 0x6c, 0x65, 0x4f,
  0x70, 0x00, 0x00, 0x00, 0x01, 0x00, 0x00, 0x00, 0x0a, 0x00, 0x00, 0x00,
  0x22, 0xff, 0xff, 0xff, 0x00, 0x00, 0x00, 0x01, 0x14, 0x00, 0x00, 0x00,
  0x30, 0x00, 0x00, 0x00, 0x03, 0x00, 0x00, 0x00, 0x00, 0x00, 0x00, 0x09,
  0x44, 0x00, 0x00, 0x00, 0x0c, 0xff, 0xff, 0xff, 0x08, 0x00, 0x00, 0x00,
  0x10, 0x00, 0x00, 0x00, 0x01, 0x00, 0x00, 0x00, 0x00, 0x00, 0x00, 0x00,
  0x00, 0x00, 0x00, 0x00, 0x01, 0x00, 0x00, 0x00, 0x8c, 0x29, 0xb5, 0x3b,
  0x18, 0x00, 0x00, 0x00, 0x73, 0x65, 0x71, 0x75, 0x65, 0x6e, 0x74, 0x69,
  0x61, 0x6c, 0x2f, 0x79, 0x5f, 0x70, 0x72, 0x65, 0x64, 0x2f, 0x4d, 0x61,
  0x74, 0x4d, 0x75, 0x6c, 0x00, 0x00, 0x00, 0x00, 0x02, 0x00, 0x00, 0x00,
  0x04, 0x00, 0x00, 0x00, 0x0a, 0x00, 0x00, 0x00, 0x8a, 0xff, 0xff, 0xff,
  0x00, 0x00, 0x00, 0x01, 0x14, 0x00, 0x00, 0x00, 0x30, 0x00, 0x00, 0x00,
  0x02, 0x00, 0x00, 0x00, 0x00, 0x00, 0x00, 0x02, 0x54, 0x00, 0x00, 0x00,
  0x74, 0xff, 0xff, 0xff, 0x08, 0x00, 0x00, 0x00, 0x10, 0x00, 0x00, 0x00,
  0x01, 0x00, 0x00, 0x00, 0x00, 0x00, 0x00, 0x00, 0x00, 0x00, 0x00, 0x00,
  0x01, 0x00, 0x00, 0x00, 0x13, 0x2a, 0x20, 0x3a, 0x28, 0x00, 0x00, 0x00,
  0x73, 0x65, 0x71, 0x75, 0x65, 0x6e, 0x74, 0x69, 0x61, 0x6c, 0x2f, 0x79,
  0x5f, 0x70, 0x72, 0x65, 0x64, 0x2f, 0x42, 0x69, 0x61, 0x73, 0x41, 0x64,
  0x64, 0x2f, 0x52, 0x65, 0x61, 0x64, 0x56, 0x61, 0x72, 0x69, 0x61, 0x62,
  0x6c, 0x65, 0x4f, 0x70, 0x00, 0x00, 0x00, 0x00, 0x01, 0x00, 0x00, 0x00,
  0x04, 0x00, 0x00, 0x00, 0x00, 0x00, 0x16, 0x00, 0x1c, 0x00, 0x18, 0x00,
  0x17, 0x00, 0x10, 0x00, 0x0c, 0x00, 0x08, 0x00, 0x00, 0x00, 0x00, 0x00,
  0x00, 0x00, 0x07, 0x00, 0x16, 0x00, 0x00, 0x00, 0x00, 0x00, 0x00, 0x01,
  0x20, 0x00, 0x00, 0x00, 0x40, 0x00, 0x00, 0x00, 0x01, 0x00, 0x00, 0x00,
  0x00, 0x00, 0x00, 0x09, 0x4c, 0x00, 0x00, 0x00, 0x0c, 0x00, 0x0c, 0x00,
  0x00, 0x00, 0x00, 0x00, 0x08, 0x00, 0x04, 0x00, 0x0c, 0x00, 0x00, 0x00,
  0x08, 0x00, 0x00, 0x00, 0x14, 0x00, 0x00, 0x00, 0x01, 0x00, 0x00, 0x00,
  0x9d, 0xff, 0xff, 0xff, 0xff, 0xff, 0xff, 0xff, 0x00, 0x00, 0x00, 0x00,
  0x01, 0x00, 0x00, 0x00, 0x83, 0xb0, 0x80, 0x3e, 0x13, 0x00, 0x00, 0x00,
  0x73, 0x65, 0x72, 0x76, 0x69, 0x6e, 0x67, 0x5f, 0x64, 0x65, 0x66, 0x61,
  0x75, 0x6c, 0x74, 0x5f, 0x78, 0x3a, 0x30, 0x00, 0x02, 0x00, 0x00, 0x00,
  0x01, 0x00, 0x00, 0x00, 0x27, 0x00, 0x00, 0x00, 0x02, 0x00, 0x00, 0x00,
  0x24, 0x00, 0x00, 0x00, 0x04, 0x00, 0x00, 0x00, 0xf0, 0xff, 0xff, 0xff,
  0x19, 0x00, 0x00, 0x00, 0x02, 0x00, 0x00, 0x00, 0x00, 0x00, 0x00, 0x19,
  0x0c, 0x00, 0x10, 0x00, 0x0f, 0x00, 0x00, 0x00, 0x08, 0x00, 0x04, 0x00,
  0x0c, 0x00, 0x00, 0x00, 0x09, 0x00, 0x00, 0x00, 0x04, 0x00, 0x00, 0x00,
  0x00, 0x00, 0x00, 0x09
};
unsigned int tflite_learn_7_len = 3520;

#endif // _EI_CLASSIFIER_TFLITE_LEARN_7_H_

